1111000000000000
1111000000000000
1111000000000000
1111000000000000
1111000000000000
1111000000000000
1111000000000000
1111000000000000
1111000000000000
1111000000000000
1111000000000000
1111000000000000
1111000000000000
1111000000000000
1111000000000000
1111000000000000
1111000000000000
1111000000000000
1111000000000000
1111000000000000
1111000000000000
1111000000000000
1111000000000000
1111000000000000
1111000000000000
1111000000000000
1111000000000000
1111000000000000
1111000000000000
1111000000000000
1111000000000000
1111000000000000
1111000000000000
1111000000000000
1111000000000000
1111000000000000
1111000000000000
1111000000000000
1111000000000000
1111000000000000
1111000000000000
1111000000000000
1111000000000000
1111000000000000
1111000000000000
1111000000000000
1111000000000000
1111000000000000
1111000000000000
1111000000000000
1111000000000000
1111000000000000
1111000000000000
1111000000000000
1111000000000000
1111000000000000
1111000000000000
1111000000000000
1111000000000000
1111000000000000
1111000000000000
1111000000000000
1111000000000000
1111000000000000
1111000000000000
1111000000000000
1111000000000000
1111000000000000
1111000000000000
1111000000000000
1111000000000000
1111000000000000
1111000000000000
1111000000000000
1111000000000000
1111000000000000
1111000000000000
1111000000000000
1111000000000000
1111000000000000
1111000000000000
1111000000000000
1111000000000000
1111000000000000
1111000000000000
1111000000000000
1111000000000000
1111000000000000
1111000000000000
1111000000000000
1111000000000000
1111000000000000
1111000000000000
1111000000000000
1111000000000000
1111000000000000
1111000000000000
1111000000000000
1111000000000000
1111000000000000
1111000000000000
1111000000000000
1111000000000000
1111000000000000
1111000000000000
1111000000000000
1111000000000000
1111000000000000
1111000000000000
1111000000000000
1111000000000000
1111000000000000
1111000000000000
1111000000000000
1111000000000000
1111000000000000
1111000000000000
1111000000000000
1111000000000000
1111000000000000
1111000000000000
1111000000000000
1111000000000000
1111000000000000
1111000000000000
1111000000000000
1111000000000000
1111000000000000
1111000000000000
1111000000000000
1111000000000000
1111000000000000
1111000000000000
1111000000000000
1111000000000000
1111000000000000
1111000000000000
1111000000000000
1111000000000000
1111000000000000
1111000000000000
1111000000000000
1111000000000000
1111000000000000
1111000000000000
1111000000000000
1111000000000000
1111000000000000
1111000000000000
1111000000000000
1111000000000000
1111000000000000
1111000000000000
1111000000000000
1111000000000000
1111000000000000
1111000000000000
1111000000000000
1111000000000000
1111000000000000
1111000000000000
1111000000000000
1111000000000000
1111000000000000
1111000000000000
1111000000000000
1111000000000000
1111000000000000
1111000000000000
1111000000000000
1111000000000000
1111000000000000
1111000000000000
1111000000000000
1111000000000000
1111000000000000
1111000000000000
1111000000000000
1111000000000000
1111000000000000
1111000000000000
1111000000000000
1111000000000000
1111000000000000
1111000000000000
1111000000000000
1111000000000000
1111000000000000
1111000000000000
1111000000000000
1111000000000000
1111000000000000
1111000000000000
1111000000000000
1111000000000000
1111000000000000
1111000000000000
1111000000000000
1111000000000000
1111000000000000
1111000000000000
1111000000000000
1111000000000000
1111000000000000
1111000000000000
1111000000000000
1111000000000000
1111000000000000
1111000000000000
1111000000000000
1111000000000000
1111000000000000
1111000000000000
1111000000000000
1111000000000000
1111000000000000
1111000000000000
1111000000000000
1111000000000000
1111000000000000
1111000000000000
1111000000000000
1111000000000000
1111000000000000
1111000000000000
1111000000000000
1111000000000000
1111000000000000
1111000000000000
1111000000000000
1111000000000000
1111000000000000
1111000000000000
1111000000000000
1111000000000000
1111000000000000
1111000000000000
1111000000000000
1111000000000000
1111000000000000
1111000000000000
1111000000000000
1111000000000000
1111000000000000
1111000000000000
1111000000000000
1111000000000000
1111000000000000
1111000000000000
1111000000000000
1111000000000000
1111000000000000
1111000000000000
1111000000000000
1111000000000000
1111000000000000
1111000000000000
1111000000000000
1111000000000000
1111000000000000
1111000000000000
1111000000000000
1111000000000000
1111000000000000
1111000000000000
1111000000000000
1111000000000000
1111000000000000
1111000000000000
1111000000000000
1111000000000000
1111000000000000
1111000000000000
1111000000000000
1111000000000000
1111000000000000
1111000000000000
1111000000000000
1111000000000000
1111000000000000
1111000000000000
1111000000000000
1111000000000000
1111000000000000
1111000000000000
1111000000000000
1111000000000000
1111000000000000
1111000000000000
1111000000000000
1111000000000000
1111000000000000
1111000000000000
1111000000000000
1111000000000000
1111000000000000
1111000000000000
1111000000000000
1111000000000000
1111000000000000
1111000000000000
1111000000000000
1111000000000000
1111000000000000
1111000000000000
1111000000000000
1111000000000000
1111000000000000
1111000000000000
1111000000000000
1111000000000000
1111000000000000
1111000000000000
1111000000000000
1111000000000000
1111000000000000
1111000000000000
1111000000000000
1111000000000000
1111000000000000
1111000000000000
1111000000000000
1111000000000000
1111000000000000
1111000000000000
1111000000000000
1111000000000000
1111000000000000
1111000000000000
1111000000000000
1111000000000000
1111000000000000
1111000000000000
1111000000000000
1111000000000000
1111000000000000
1111000000000000
1111000000000000
1111000000000000
1111000000000000
1111000000000000
1111000000000000
1111000000000000
1111000000000000
1111000000000000
1111000000000000
1111000000000000
1111000000000000
1111000000000000
1111000000000000
1111000000000000
1111000000000000
1111000000000000
1111000000000000
1111000000000000
1111000000000000
1111000000000000
1111000000000000
1111000000000000
1111000000000000
1111000000000000
1111000000000000
1111000000000000
1111000000000000
1111000000000000
1111000000000000
1111000000000000
1111000000000000
1111000000000000
1111000000000000
1111000000000000
1111000000000000
1111000000000000
1111000000000000
1111000000000000
1111000000000000
1111000000000000
1111000000000000
1111000000000000
1111000000000000
1111000000000000
1111000000000000
1111000000000000
1111000000000000
1111000000000000
1111000000000000
1111000000000000
1111000000000000
1111000000000000
1111000000000000
1111000000000000
1111000000000000
1111000000000000
1111000000000000
1111000000000000
1111000000000000
1111000000000000
1111000000000000
1111000000000000
1111000000000000
1111000000000000
1111000000000000
1111000000000000
1111000000000000
1111000000000000
1111000000000000
1111000000000000
1111000000000000
1111000000000000
1111000000000000
1111000000000000
1111000000000000
1111000000000000
1111000000000000
1111000000000000
1111000000000000
1111000000000000
1111000000000000
1111000000000000
1111000000000000
1111000000000000
1111000000000000
1111000000000000
1111000000000000
1111000000000000
1111000000000000
1111000000000000
1111000000000000
1111000000000000
1111000000000000
1111000000000000
1111000000000000
1111000000000000
1111000000000000
1111000000000000
1111000000000000
1111000000000000
1111000000000000
1111000000000000
1111000000000000
1111000000000000
1111000000000000
1111000000000000
1111000000000000
1111000000000000
1111000000000000
1111000000000000
1111000000000000
1111000000000000
1111000000000000
1111000000000000
1111000000000000
1111000000000000
1111000000000000
1111000000000000
1111000000000000
1111000000000000
1111000000000000
1111000000000000
1111000000000000
1111000000000000
1111000000000000
1111000000000000
1111000000000000
1111000000000000
1111000000000000
1111000000000000
1111000000000000
1111000000000000
1111000000000000
1111000000000000
1111000000000000
1111000000000000
1111000000000000
1111000000000000
1111000000000000
1111000000000000
1111000000000000
1111000000000000
1111000000000000
1111000000000000
1111000000000000
1111000000000000
1111000000000000
1111000000000000
1111000000000000
1111000000000000
1111000000000000
1111000000000000
1111000000000000
1111000000000000
1111000000000000
1111000000000000
1111000000000000
1111000000000000
1111000000000000
1111000000000000
1111000000000000
1111000000000000
1111000000000000
1111000000000000
1111000000000000
1111000000000000
1111000000000000
1111000000000000
1111000000000000
1111000000000000
1111000000000000
1111000000000000
1111000000000000
1111000000000000
1111000000000000
1111000000000000
1111000000000000
1111000000000000
1111000000000000
1111000000000000
1111000000000000
1111000000000000
1111000000000000
1111000000000000
1111000000000000
1111000000000000
1111000000000000
1111000000000000
1111000000000000
1111000000000000
1111000000000000
1111000000000000
1111000000000000
1111000000000000
1111000000000000
1111000000000000
1111000000000000
1111000000000000
1111000000000000
1111000000000000
1111000000000000
1111000000000000
1111000000000000
1111000000000000
1111000000000000
1111000000000000
1111000000000000
1111000000000000
1111000000000000
1111000000000000
1111000000000000
1111000000000000
1111000000000000
1111000000000000
1111000000000000
1111000000000000
1111000000000000
1111000000000000
1111000000000000
1111000000000000
1111000000000000
1111000000000000
1111000000000000
1111000000000000
1111000000000000
1111000000000000
1111000000000000
1111000000000000
1111000000000000
1111000000000000
1111000000000000
1111000000000000
1111000000000000
1111000000000000
1111000000000000
1111000000000000
1111000000000000
1111000000000000
1111000000000000
1111000000000000
1111000000000000
1111000000000000
1111000000000000
1111000000000000
1111000000000000
1111000000000000
1111000000000000
1111000000000000
1111000000000000
1111000000000000
1111000000000000
1111000000000000
1111000000000000
1111000000000000
1111000000000000
1111000000000000
1111000000000000
1111000000000000
1111000000000000
1111000000000000
1111000000000000
1111000000000000
1111000000000000
1111000000000000
1111000000000000
1111000000000000
1111000000000000
1111000000000000
1111000000000000
1111000000000000
1111000000000000
1111000000000000
1111000000000000
1111000000000000
1111000000000000
1111000000000000
1111000000000000
1111000000000000
1111000000000000
1111000000000000
1111000000000000
1111000000000000
1111000000000000
1111000000000000
1111000000000000
1111000000000000
1111000000000000
1111000000000000
1111000000000000
1111000000000000
1111000000000000
1111000000000000
1111000000000000
1111000000000000
1111000000000000
1111000000000000
1111000000000000
1111000000000000
1111000000000000
1111000000000000
1111000000000000
1111000000000000
1111000000000000
1111000000000000
1111000000000000
1111000000000000
1111000000000000
1111000000000000
1111000000000000
1111000000000000
1111000000000000
1111000000000000
1111000000000000
1111000000000000
1111000000000000
1111000000000000
1111000000000000
1111000000000000
1111000000000000
1111000000000000
1111000000000000
1111000000000000
1111000000000000
1111000000000000
1111000000000000
1111000000000000
1111000000000000
1111000000000000
1111000000000000
1111000000000000
1111000000000000
1111000000000000
1111000000000000
1111000000000000
1111000000000000
1111000000000000
1111000000000000
1111000000000000
1111000000000000
1111000000000000
1111000000000000
1111000000000000
1111000000000000
1111000000000000
1111000000000000
1111000000000000
1111000000000000
1111000000000000
1111000000000000
1111000000000000
1111000000000000
1111000000000000
1111000000000000
1111000000000000
1111000000000000
1111000000000000
1111000000000000
1111000000000000
1111000000000000
1111000000000000
1111000000000000
1111000000000000
1111000000000000
1111000000000000
1111000000000000
1111000000000000
1111000000000000
1111000000000000
1111000000000000
1111000000000000
1111000000000000
1111000000000000
1111000000000000
1111000000000000
1111000000000000
1111000000000000
1111000000000000
1111000000000000
1111000000000000
1111000000000000
1111000000000000
1111000000000000
1111000000000000
1111000000000000
1111000000000000
1111000000000000
1111000000000000
1111000000000000
1111000000000000
1111000000000000
1111000000000000
1111000000000000
1111000000000000
1111000000000000
1111000000000000
1111000000000000
1111000000000000
1111000000000000
1111000000000000
1111000000000000
1111000000000000
1111000000000000
1111000000000000
1111000000000000
1111000000000000
1111000000000000
1111000000000000
1111000000000000
1111000000000000
1111000000000000
1111000000000000
1111000000000000
1111000000000000
1111000000000000
1111000000000000
1111000000000000
1111000000000000
1111000000000000
1111000000000000
1111000000000000
1111000000000000
1111000000000000
1111000000000000
1111000000000000
1111000000000000
1111000000000000
1111000000000000
1111000000000000
1111000000000000
1111000000000000
1111000000000000
1111000000000000
1111000000000000
1111000000000000
1111000000000000
1111000000000000
1111000000000000
1111000000000000
1111000000000000
1111000000000000
1111000000000000
1111000000000000
1111000000000000
1111000000000000
1111000000000000
1111000000000000
1111000000000000
1111000000000000
1111000000000000
1111000000000000
1111000000000000
1111000000000000
1111000000000000
1111000000000000
1111000000000000
1111000000000000
1111000000000000
1111000000000000
1111000000000000
1111000000000000
1111000000000000
1111000000000000
1111000000000000
1111000000000000
1111000000000000
1111000000000000
1111000000000000
1111000000000000
1111000000000000
1111000000000000
1111000000000000
1111000000000000
1111000000000000
1111000000000000
1111000000000000
1111000000000000
1111000000000000
1111000000000000
1111000000000000
1111000000000000
1111000000000000
1111000000000000
1111000000000000
1111000000000000
1111000000000000
1111000000000000
1111000000000000
1111000000000000
1111000000000000
1111000000000000
1111000000000000
1111000000000000
1111000000000000
1111000000000000
1111000000000000
1111000000000000
1111000000000000
1111000000000000
1111000000000000
1111000000000000
1111000000000000
1111000000000000
1111000000000000
1111000000000000
1111000000000000
1111000000000000
1111000000000000
1111000000000000
1111000000000000
1111000000000000
1111000000000000
1111000000000000
1111000000000000
1111000000000000
1111000000000000
1111000000000000
1111000000000000
1111000000000000
1111000000000000
1111000000000000
1111000000000000
1111000000000000
1111000000000000
1111000000000000
1111000000000000
1111000000000000
1111000000000000
1111000000000000
1111000000000000
1111000000000000
1111000000000000
1111000000000000
1111000000000000
1111000000000000
1111000000000000
1111000000000000
1111000000000000
1111000000000000
1111000000000000
1111000000000000
1111000000000000
1111000000000000
1111000000000000
1111000000000000
1111000000000000
1111000000000000
1111000000000000
1111000000000000
1111000000000000
1111000000000000
1111000000000000
1111000000000000
1111000000000000
1111000000000000
1111000000000000
1111000000000000
1111000000000000
1111000000000000
1111000000000000
1111000000000000
1111000000000000
1111000000000000
1111000000000000
1111000000000000
1111000000000000
1111000000000000
1111000000000000
1111000000000000
1111000000000000
1111000000000000
1111000000000000
1111000000000000
1111000000000000
1111000000000000
1111000000000000
1111000000000000
1111000000000000
1111000000000000
1111000000000000
1111000000000000
1111000000000000
1111000000000000
1111000000000000
1111000000000000
1111000000000000
1111000000000000
1111000000000000
1111000000000000
1111000000000000
1111000000000000
1111000000000000
1111000000000000
1111000000000000
1111000000000000
1111000000000000
1111000000000000
1111000000000000
1111000000000000
1111000000000000
1111000000000000
1111000000000000
1111000000000000
1111000000000000
1111000000000000
1111000000000000
1111000000000000
1111000000000000
1111000000000000
1111000000000000
1111000000000000
1111000000000000
1111000000000000
1111000000000000
1111000000000000
1111000000000000
1111000000000000
1111000000000000
1111000000000000
1111000000000000
1111000000000000
1111000000000000
1111000000000000
1111000000000000
1111000000000000
1111000000000000
1111000000000000
1111000000000000
1111000000000000
1111000000000000
1111000000000000
1111000000000000
1111000000000000
1111000000000000
1111000000000000
1111000000000000
1111000000000000
1111000000000000
1111000000000000
1111000000000000
1111000000000000
1111000000000000
1111000000000000
1111000000000000
1111000000000000
1111000000000000
1111000000000000
1111000000000000
1111000000000000
1111000000000000
1111000000000000
1111000000000000
1111000000000000
1111000000000000
1111000000000000
1111000000000000
1111000000000000
1111000000000000
1111000000000000
1111000000000000
1111000000000000
1111000000000000
1111000000000000
1111000000000000
1111000000000000
1111000000000000
1111000000000000
1111000000000000
1111000000000000
1111000000000000
1111000000000000
1111000000000000
1111000000000000
1111000000000000
1111000000000000
1111000000000000
1111000000000000
1111000000000000
1111000000000000
1111000000000000
1111000000000000
1111000000000000
1111000000000000
1111000000000000
1111000000000000
1111000000000000
1111000000000000
1111000000000000
1111000000000000
1111000000000000
1111000000000000
1111000000000000
1111000000000000
1111000000000000
1111000000000000
1111000000000000
1111000000000000
1111000000000000
1111000000000000
1111000000000000
1111000000000000
1111000000000000
1111000000000000
1111000000000000
1111000000000000
1111000000000000
1111000000000000
1111000000000000
1111000000000000
1111000000000000
1111000000000000
1111000000000000
1111000000000000
1111000000000000
1111000000000000
1111000000000000
1111000000000000
1111000000000000
1111000000000000
1111000000000000
1111000000000000
1111000000000000
1111000000000000
1111000000000000
1111000000000000
1111000000000000
1111000000000000
1111000000000000
1111000000000000
1111000000000000
1111000000000000
1111000000000000
1111000000000000
1111000000000000
1111000000000000
1111000000000000
1111000000000000
1111000000000000
1111000000000000
1111000000000000
1111000000000000
1111000000000000
1111000000000000
1111000000000000
1111000000000000
1111000000000000
1111000000000000
1111000000000000
1111000000000000
1111000000000000
1111000000000000
1111000000000000
1111000000000000
1111000000000000
1111000000000000
1111000000000000
1111000000000000
1111000000000000
1111000000000000
1111000000000000
1111000000000000
1111000000000000
1111000000000000
1111000000000000
1111000000000000
1111000000000000
1111000000000000
1111000000000000
1111000000000000
1111000000000000
1111000000000000
1111000000000000
1111000000000000
1111000000000000
1111000000000000
1111000000000000
1111000000000000
1111000000000000
1111000000000000
1111000000000000
1111000000000000
1111000000000000
1111000000000000
1111000000000000
1111000000000000
1111000000000000
1111000000000000
1111000000000000
1111000000000000
1111000000000000
1111000000000000
1111000000000000
1111000000000000
1111000000000000
1111000000000000
1111000000000000
1111000000000000
1111000000000000
1111000000000000
1111000000000000
1111000000000000
1111000000000000
1111000000000000
1111000000000000
1111000000000000
1111000000000000
1111000000000000
1111000000000000
1111000000000000
1111000000000000
1111000000000000
1111000000000000
1111000000000000
1111000000000000
1111000000000000
1111000000000000
1111000000000000
1111000000000000
1111000000000000
1111000000000000
1111000000000000
1111000000000000
1111000000000000
1111000000000000
1111000000000000
1111000000000000
1111000000000000
1111000000000000
1111000000000000
1111000000000000
1111000000000000
1111000000000000
1111000000000000
1111000000000000
1111000000000000
1111000000000000
1111000000000000
1111000000000000
1111000000000000
1111000000000000
1111000000000000
1111000000000000
1111000000000000
1111000000000000
1111000000000000
1111000000000000
1111000000000000
1111000000000000
1111000000000000
1111000000000000
1111000000000000
1111000000000000
1111000000000000
1111000000000000
1111000000000000
1111000000000000
1111000000000000
1111000000000000
1111000000000000
1111000000000000
1111000000000000
1111000000000000
1111000000000000
1111000000000000
1111000000000000
1111000000000000
1111000000000000
1111000000000000
1111000000000000
1111000000000000
1111000000000000
1111000000000000
1111000000000000
1111000000000000
1111000000000000
1111000000000000
1111000000000000
1111000000000000
1111000000000000
1111000000000000
1111000000000000
1111000000000000
1111000000000000
1111000000000000
1111000000000000
1111000000000000
1111000000000000
1111000000000000
1111000000000000
1111000000000000
1111000000000000
1111000000000000
1111000000000000
1111000000000000
1111000000000000
1111000000000000
1111000000000000
1111000000000000
1111000000000000
1111000000000000
1111000000000000
1111000000000000
1111000000000000
1111000000000000
1111000000000000
1111000000000000
1111000000000000
1111000000000000
1111000000000000
1111000000000000
1111000000000000
1111000000000000
1111000000000000
1111000000000000
1111000000000000
1111000000000000
1111000000000000
1111000000000000
1111000000000000
1111000000000000
1111000000000000
1111000000000000
1111000000000000
1111000000000000
1111000000000000
1111000000000000
1111000000000000
1111000000000000
1111000000000000
1111000000000000
1111000000000000
1111000000000000
1111000000000000
1111000000000000
1111000000000000
1111000000000000
1111000000000000
1111000000000000
1111000000000000
1111000000000000
1111000000000000
1111000000000000
1111000000000000
1111000000000000
1111000000000000
1111000000000000
1111000000000000
1111000000000000
1111000000000000
1111000000000000
1111000000000000
1111000000000000
1111000000000000
1111000000000000
1111000000000000
1111000000000000
1111000000000000
1111000000000000
1111000000000000
1111000000000000
1111000000000000
1111000000000000
1111000000000000
1111000000000000
1111000000000000
1111000000000000
1111000000000000
1111000000000000
1111000000000000
1111000000000000
1111000000000000
1111000000000000
1111000000000000
1111000000000000
1111000000000000
1111000000000000
1111000000000000
1111000000000000
1111000000000000
1111000000000000
1111000000000000
1111000000000000
1111000000000000
1111000000000000
1111000000000000
1111000000000000
1111000000000000
1111000000000000
1111000000000000
1111000000000000
1111000000000000
1111000000000000
1111000000000000
1111000000000000
1111000000000000
1111000000000000
1111000000000000
1111000000000000
1111000000000000
1111000000000000
1111000000000000
1111000000000000
1111000000000000
1111000000000000
1111000000000000
1111000000000000
1111000000000000
1111000000000000
1111000000000000
1111000000000000
1111000000000000
1111000000000000
1111000000000000
1111000000000000
1111000000000000
1111000000000000
1111000000000000
1111000000000000
1111000000000000
1111000000000000
1111000000000000
1111000000000000
1111000000000000
1111000000000000
1111000000000000
1111000000000000
1111000000000000
1111000000000000
1111000000000000
1111000000000000
1111000000000000
1111000000000000
1111000000000000
1111000000000000
1111000000000000
1111000000000000
1111000000000000
1111000000000000
1111000000000000
1111000000000000
1111000000000000
1111000000000000
1111000000000000
1111000000000000
1111000000000000
1111000000000000
1111000000000000
1111000000000000
1111000000000000
1111000000000000
1111000000000000
1111000000000000
1111000000000000
1111000000000000
1111000000000000
1111000000000000
1111000000000000
1111000000000000
1111000000000000
1111000000000000
1111000000000000
1111000000000000
1111000000000000
1111000000000000
1111000000000000
1111000000000000
1111000000000000
1111000000000000
1111000000000000
1111000000000000
1111000000000000
1111000000000000
1111000000000000
1111000000000000
1111000000000000
1111000000000000
1111000000000000
1111000000000000
1111000000000000
1111000000000000
1111000000000000
1111000000000000
1111000000000000
1111000000000000
1111000000000000
1111000000000000
1111000000000000
1111000000000000
1111000000000000
1111000000000000
1111000000000000
1111000000000000
1111000000000000
1111000000000000
1111000000000000
1111000000000000
1111000000000000
1111000000000000
1111000000000000
1111000000000000
1111000000000000
1111000000000000
1111000000000000
1111000000000000
1111000000000000
1111000000000000
1111000000000000
1111000000000000
1111000000000000
1111000000000000
1111000000000000
1111000000000000
1111000000000000
1111000000000000
1111000000000000
1111000000000000
1111000000000000
1111000000000000
1111000000000000
1111000000000000
1111000000000000
1111000000000000
1111000000000000
1111000000000000
1111000000000000
1111000000000000
1111000000000000
1111000000000000
1111000000000000
1111000000000000
1111000000000000
1111000000000000
1111000000000000
1111000000000000
1111000000000000
1111000000000000
1111000000000000
1111000000000000
1111000000000000
1111000000000000
1111000000000000
1111000000000000
1111000000000000
1111000000000000
1111000000000000
1111000000000000
1111000000000000
1111000000000000
1111000000000000
1111000000000000
1111000000000000
1111000000000000
1111000000000000
1111000000000000
1111000000000000
1111000000000000
1111000000000000
1111000000000000
1111000000000000
1111000000000000
1111000000000000
1111000000000000
1111000000000000
1111000000000000
1111000000000000
1111000000000000
1111000000000000
1111000000000000
1111000000000000
1111000000000000
1111000000000000
1111000000000000
1111000000000000
1111000000000000
1111000000000000
1111000000000000
1111000000000000
1111000000000000
1111000000000000
1111000000000000
1111000000000000
1111000000000000
1111000000000000
1111000000000000
1111000000000000
1111000000000000
1111000000000000
1111000000000000
1111000000000000
1111000000000000
1111000000000000
1111000000000000
1111000000000000
1111000000000000
1111000000000000
1111000000000000
1111000000000000
1111000000000000
1111000000000000
1111000000000000
1111000000000000
1111000000000000
1111000000000000
1111000000000000
1111000000000000
1111000000000000
1111000000000000
1111000000000000
1111000000000000
1111000000000000
1111000000000000
1111000000000000
1111000000000000
1111000000000000
1111000000000000
1111000000000000
1111000000000000
1111000000000000
1111000000000000
1111000000000000
1111000000000000
1111000000000000
1111000000000000
1111000000000000
1111000000000000
1111000000000000
1111000000000000
1111000000000000
1111000000000000
1111000000000000
1111000000000000
1111000000000000
1111000000000000
1111000000000000
1111000000000000
1111000000000000
1111000000000000
1111000000000000
1111000000000000
1111000000000000
1111000000000000
1111000000000000
1111000000000000
1111000000000000
1111000000000000
1111000000000000
1111000000000000
1111000000000000
1111000000000000
1111000000000000
1111000000000000
1111000000000000
1111000000000000
1111000000000000
1111000000000000
1111000000000000
1111000000000000
1111000000000000
1111000000000000
1111000000000000
1111000000000000
1111000000000000
1111000000000000
1111000000000000
1111000000000000
1111000000000000
1111000000000000
1111000000000000
1111000000000000
1111000000000000
1111000000000000
1111000000000000
1111000000000000
1111000000000000
1111000000000000
1111000000000000
1111000000000000
1111000000000000
1111000000000000
1111000000000000
1111000000000000
1111000000000000
1111000000000000
1111000000000000
1111000000000000
1111000000000000
1111000000000000
1111000000000000
1111000000000000
1111000000000000
1111000000000000
1111000000000000
1111000000000000
1111000000000000
1111000000000000
1111000000000000
1111000000000000
1111000000000000
1111000000000000
1111000000000000
1111000000000000
1111000000000000
1111000000000000
1111000000000000
1111000000000000
1111000000000000
1111000000000000
1111000000000000
1111000000000000
1111000000000000
1111000000000000
1111000000000000
1111000000000000
1111000000000000
1111000000000000
1111000000000000
1111000000000000
1111000000000000
1111000000000000
1111000000000000
1111000000000000
1111000000000000
1111000000000000
1111000000000000
1111000000000000
1111000000000000
1111000000000000
1111000000000000
1111000000000000
1111000000000000
1111000000000000
1111000000000000
1111000000000000
1111000000000000
1111000000000000
1111000000000000
1111000000000000
1111000000000000
1111000000000000
1111000000000000
1111000000000000
1111000000000000
1111000000000000
1111000000000000
1111000000000000
1111000000000000
1111000000000000
1111000000000000
1111000000000000
1111000000000000
1111000000000000
1111000000000000
1111000000000000
1111000000000000
1111000000000000
1111000000000000
1111000000000000
1111000000000000
1111000000000000
1111000000000000
1111000000000000
1111000000000000
1111000000000000
1111000000000000
1111000000000000
1111000000000000
1111000000000000
1111000000000000
1111000000000000
1111000000000000
1111000000000000
1111000000000000
1111000000000000
1111000000000000
1111000000000000
1111000000000000
1111000000000000
1111000000000000
1111000000000000
1111000000000000
1111000000000000
1111000000000000
1111000000000000
1111000000000000
1111000000000000
1111000000000000
1111000000000000
1111000000000000
1111000000000000
1111000000000000
1111000000000000
1111000000000000
1111000000000000
1111000000000000
1111000000000000
1111000000000000
1111000000000000
1111000000000000
1111000000000000
1111000000000000
1111000000000000
1111000000000000
1111000000000000
1111000000000000
1111000000000000
1111000000000000
1111000000000000
1111000000000000
1111000000000000
1111000000000000
1111000000000000
1111000000000000
1111000000000000
1111000000000000
1111000000000000
1111000000000000
1111000000000000
1111000000000000
1111000000000000
1111000000000000
1111000000000000
1111000000000000
1111000000000000
1111000000000000
1111000000000000
1111000000000000
1111000000000000
1111000000000000
1111000000000000
1111000000000000
1111000000000000
1111000000000000
1111000000000000
1111000000000000
1111000000000000
1111000000000000
1111000000000000
1111000000000000
1111000000000000
1111000000000000
1111000000000000
1111000000000000
1111000000000000
1111000000000000
1111000000000000
1111000000000000
1111000000000000
1111000000000000
1111000000000000
1111000000000000
1111000000000000
1111000000000000
1111000000000000
1111000000000000
1111000000000000
1111000000000000
1111000000000000
1111000000000000
1111000000000000
1111000000000000
1111000000000000
1111000000000000
1111000000000000
1111000000000000
1111000000000000
1111000000000000
1111000000000000
1111000000000000
1111000000000000
1111000000000000
1111000000000000
1111000000000000
1111000000000000
1111000000000000
1111000000000000
1111000000000000
1111000000000000
1111000000000000
1111000000000000
1111000000000000
1111000000000000
1111000000000000
1111000000000000
1111000000000000
1111000000000000
1111000000000000
1111000000000000
1111000000000000
1111000000000000
1111000000000000
1111000000000000
1111000000000000
1111000000000000
1111000000000000
1111000000000000
1111000000000000
1111000000000000
1111000000000000
1111000000000000
1111000000000000
1111000000000000
1111000000000000
1111000000000000
1111000000000000
1111000000000000
1111000000000000
1111000000000000
1111000000000000
1111000000000000
1111000000000000
1111000000000000
1111000000000000
1111000000000000
1111000000000000
1111000000000000
1111000000000000
1111000000000000
1111000000000000
1111000000000000
1111000000000000
1111000000000000
1111000000000000
1111000000000000
1111000000000000
1111000000000000
1111000000000000
1111000000000000
1111000000000000
1111000000000000
1111000000000000
1111000000000000
1111000000000000
1111000000000000
1111000000000000
1111000000000000
1111000000000000
1111000000000000
1111000000000000
1111000000000000
1111000000000000
1111000000000000
1111000000000000
1111000000000000
1111000000000000
1111000000000000
1111000000000000
1111000000000000
1111000000000000
1111000000000000
1111000000000000
1111000000000000
1111000000000000
1111000000000000
1111000000000000
1111000000000000
1111000000000000
1111000000000000
1111000000000000
1111000000000000
1111000000000000
1111000000000000
1111000000000000
1111000000000000
1111000000000000
1111000000000000
1111000000000000
1111000000000000
1111000000000000
1111000000000000
1111000000000000
1111000000000000
1111000000000000
1111000000000000
1111000000000000
1111000000000000
1111000000000000
1111000000000000
1111000000000000
1111000000000000
1111000000000000
1111000000000000
1111000000000000
1111000000000000
1111000000000000
1111000000000000
1111000000000000
1111000000000000
1111000000000000
1111000000000000
1111000000000000
1111000000000000
1111000000000000
1111000000000000
1111000000000000
1111000000000000
1111000000000000
1111000000000000
1111000000000000
1111000000000000
1111000000000000
1111000000000000
1111000000000000
1111000000000000
1111000000000000
1111000000000000
1111000000000000
1111000000000000
1111000000000000
1111000000000000
1111000000000000
1111000000000000
1111000000000000
1111000000000000
1111000000000000
1111000000000000
1111000000000000
1111000000000000
1111000000000000
1111000000000000
1111000000000000
1111000000000000
1111000000000000
1111000000000000
1111000000000000
1111000000000000
1111000000000000
1111000000000000
1111000000000000
1111000000000000
1111000000000000
1111000000000000
1111000000000000
1111000000000000
1111000000000000
1111000000000000
1111000000000000
1111000000000000
1111000000000000
1111000000000000
1111000000000000
1111000000000000
1111000000000000
1111000000000000
1111000000000000
1111000000000000
1111000000000000
1111000000000000
1111000000000000
1111000000000000
1111000000000000
1111000000000000
1111000000000000
1111000000000000
1111000000000000
1111000000000000
1111000000000000
1111000000000000
1111000000000000
1111000000000000
1111000000000000
1111000000000000
1111000000000000
1111000000000000
1111000000000000
1111000000000000
1111000000000000
1111000000000000
1111000000000000
1111000000000000
1111000000000000
1111000000000000
1111000000000000
1111000000000000
1111000000000000
1111000000000000
1111000000000000
1111000000000000
1111000000000000
1111000000000000
1111000000000000
1111000000000000
1111000000000000
1111000000000000
1111000000000000
1111000000000000
1111000000000000
1111000000000000
1111000000000000
1111000000000000
1111000000000000
1111000000000000
1111000000000000
1111000000000000
1111000000000000
1111000000000000
1111000000000000
1111000000000000
1111000000000000
1111000000000000
1111000000000000
1111000000000000
1111000000000000
1111000000000000
1111000000000000
1111000000000000
1111000000000000
1111000000000000
1111000000000000
1111000000000000
1111000000000000
1111000000000000
1111000000000000
1111000000000000
1111000000000000
1111000000000000
1111000000000000
1111000000000000
1111000000000000
1111000000000000
1111000000000000
1111000000000000
1111000000000000
1111000000000000
1111000000000000
1111000000000000
1111000000000000
1111000000000000
1111000000000000
1111000000000000
1111000000000000
1111000000000000
1111000000000000
1111000000000000
1111000000000000
1111000000000000
1111000000000000
1111000000000000
1111000000000000
1111000000000000
1111000000000000
1111000000000000
1111000000000000
1111000000000000
1111000000000000
1111000000000000
1111000000000000
1111000000000000
1111000000000000
1111000000000000
1111000000000000
1111000000000000
1111000000000000
1111000000000000
1111000000000000
1111000000000000
1111000000000000
1111000000000000
1111000000000000
1111000000000000
1111000000000000
1111000000000000
1111000000000000
1111000000000000
1111000000000000
1111000000000000
1111000000000000
1111000000000000
1111000000000000
1111000000000000
1111000000000000
1111000000000000
1111000000000000
1111000000000000
1111000000000000
1111000000000000
1111000000000000
1111000000000000
1111000000000000
1111000000000000
1111000000000000
1111000000000000
1111000000000000
1111000000000000
1111000000000000
1111000000000000
1111000000000000
1111000000000000
1111000000000000
1111000000000000
1111000000000000
1111000000000000
1111000000000000
1111000000000000
1111000000000000
1111000000000000
1111000000000000
1111000000000000
1111000000000000
1111000000000000
1111000000000000
1111000000000000
1111000000000000
1111000000000000
1111000000000000
1111000000000000
1111000000000000
1111000000000000
1111000000000000
1111000000000000
1111000000000000
1111000000000000
1111000000000000
1111000000000000
1111000000000000
1111000000000000
1111000000000000
1111000000000000
1111000000000000
1111000000000000
1111000000000000
1111000000000000
1111000000000000
1111000000000000
1111000000000000
1111000000000000
1111000000000000
1111000000000000
1111000000000000
1111000000000000
1111000000000000
1111000000000000
1111000000000000
1111000000000000
1111000000000000
1111000000000000
1111000000000000
1111000000000000
1111000000000000
1111000000000000
1111000000000000
1111000000000000
1111000000000000
1111000000000000
1111000000000000
1111000000000000
1111000000000000
1111000000000000
1111000000000000
1111000000000000
1111000000000000
1111000000000000
1111000000000000
1111000000000000
1111000000000000
1111000000000000
1111000000000000
1111000000000000
1111000000000000
1111000000000000
1111000000000000
1111000000000000
1111000000000000
1111000000000000
1111000000000000
1111000000000000
1111000000000000
1111000000000000
1111000000000000
1111000000000000
1111000000000000
1111000000000000
1111000000000000
1111000000000000
1111000000000000
1111000000000000
1111000000000000
1111000000000000
1111000000000000
1111000000000000
1111000000000000
1111000000000000
1111000000000000
1111000000000000
1111000000000000
1111000000000000
1111000000000000
1111000000000000
1111000000000000
1111000000000000
1111000000000000
1111000000000000
1111000000000000
1111000000000000
1111000000000000
1111000000000000
1111000000000000
1111000000000000
1111000000000000
1111000000000000
1111000000000000
1111000000000000
1111000000000000
1111000000000000
1111000000000000
1111000000000000
1111000000000000
1111000000000000
1111000000000000
1111000000000000
1111000000000000
1111000000000000
1111000000000000
1111000000000000
1111000000000000
1111000000000000
1111000000000000
1111000000000000
1111000000000000
1111000000000000
1111000000000000
1111000000000000
1111000000000000
1111000000000000
1111000000000000
1111000000000000
1111000000000000
1111000000000000
1111000000000000
1111000000000000
1111000000000000
1111000000000000
1111000000000000
1111000000000000
1111000000000000
1111000000000000
1111000000000000
1111000000000000
1111000000000000
1111000000000000
1111000000000000
1111000000000000
1111000000000000
1111000000000000
1111000000000000
1111000000000000
1111000000000000
1111000000000000
1111000000000000
1111000000000000
1111000000000000
1111000000000000
1111000000000000
1111000000000000
1111000000000000
1111000000000000
1111000000000000
1111000000000000
1111000000000000
1111000000000000
1111000000000000
1111000000000000
1111000000000000
1111000000000000
1111000000000000
1111000000000000
1111000000000000
1111000000000000
1111000000000000
1111000000000000
1111000000000000
1111000000000000
1111000000000000
1111000000000000
1111000000000000
1111000000000000
1111000000000000
1111000000000000
1111000000000000
1111000000000000
1111000000000000
1111000000000000
1111000000000000
1111000000000000
1111000000000000
1111000000000000
1111000000000000
1111000000000000
1111000000000000
1111000000000000
1111000000000000
1111000000000000
1111000000000000
1111000000000000
1111000000000000
1111000000000000
1111000000000000
1111000000000000
1111000000000000
1111000000000000
1111000000000000
1111000000000000
1111000000000000
1111000000000000
1111000000000000
1111000000000000
1111000000000000
1111000000000000
1111000000000000
1111000000000000
1111000000000000
1111000000000000
1111000000000000
1111000000000000
1111000000000000
1111000000000000
1111000000000000
1111000000000000
1111000000000000
1111000000000000
1111000000000000
1111000000000000
1111000000000000
1111000000000000
1111000000000000
1111000000000000
1111000000000000
1111000000000000
1111000000000000
1111000000000000
1111000000000000
1111000000000000
1111000000000000
1111000000000000
1111000000000000
1111000000000000
1111000000000000
1111000000000000
1111000000000000
1111000000000000
1111000000000000
1111000000000000
1111000000000000
1111000000000000
1111000000000000
1111000000000000
1111000000000000
1111000000000000
1111000000000000
1111000000000000
1111000000000000
1111000000000000
1111000000000000
1111000000000000
1111000000000000
1111000000000000
1111000000000000
1111000000000000
1111000000000000
1111000000000000
1111000000000000
1111000000000000
1111000000000000
1111000000000000
1111000000000000
1111000000000000
1111000000000000
1111000000000000
1111000000000000
1111000000000000
1111000000000000
1111000000000000
1111000000000000
1111000000000000
1111000000000000
1111000000000000
1111000000000000
1111000000000000
1111000000000000
1111000000000000
1111000000000000
1111000000000000
1111000000000000
1111000000000000
1111000000000000
1111000000000000
1111000000000000
1111000000000000
1111000000000000
1111000000000000
1111000000000000
1111000000000000
1111000000000000
1111000000000000
1111000000000000
1111000000000000
1111000000000000
1111000000000000
1111000000000000
1111000000000000
1111000000000000
1111000000000000
1111000000000000
1111000000000000
1111000000000000
1111000000000000
1111000000000000
1111000000000000
1111000000000000
1111000000000000
1111000000000000
1111000000000000
1111000000000000
1111000000000000
1111000000000000
1111000000000000
1111000000000000
1111000000000000
1111000000000000
1111000000000000
1111000000000000
1111000000000000
1111000000000000
1111000000000000
1111000000000000
1111000000000000
1111000000000000
1111000000000000
1111000000000000
1111000000000000
1111000000000000
1111000000000000
1111000000000000
1111000000000000
1111000000000000
1111000000000000
1111000000000000
1111000000000000
1111000000000000
1111000000000000
1111000000000000
1111000000000000
1111000000000000
1111000000000000
1111000000000000
1111000000000000
1111000000000000
1111000000000000
1111000000000000
1111000000000000
1111000000000000
1111000000000000
1111000000000000
1111000000000000
1111000000000000
1111000000000000
1111000000000000
1111000000000000
1111000000000000
1111000000000000
1111000000000000
1111000000000000
1111000000000000
1111000000000000
1111000000000000
1111000000000000
1111000000000000
1111000000000000
1111000000000000
1111000000000000
1111000000000000
1111000000000000
1111000000000000
1111000000000000
1111000000000000
1111000000000000
1111000000000000
1111000000000000
1111000000000000
1111000000000000
1111000000000000
1111000000000000
1111000000000000
1111000000000000
1111000000000000
1111000000000000
1111000000000000
1111000000000000
1111000000000000
1111000000000000
1111000000000000
1111000000000000
1111000000000000
1111000000000000
1111000000000000
1111000000000000
1111000000000000
1111000000000000
1111000000000000
1111000000000000
1111000000000000
1111000000000000
1111000000000000
1111000000000000
1111000000000000
1111000000000000
1111000000000000
1111000000000000
1111000000000000
1111000000000000
1111000000000000
1111000000000000
1111000000000000
1111000000000000
1111000000000000
1111000000000000
1111000000000000
1111000000000000
1111000000000000
1111000000000000
1111000000000000
1111000000000000
1111000000000000
1111000000000000
1111000000000000
1111000000000000
1111000000000000
1111000000000000
1111000000000000
1111000000000000
1111000000000000
1111000000000000
1111000000000000
1111000000000000
1111000000000000
1111000000000000
1111000000000000
1111000000000000
1111000000000000
1111000000000000
1111000000000000
1111000000000000
1111000000000000
1111000000000000
1111000000000000
1111000000000000
1111000000000000
1111000000000000
1111000000000000
1111000000000000
1111000000000000
1111000000000000
1111000000000000
1111000000000000
1111000000000000
1111000000000000
1111000000000000
1111000000000000
1111000000000000
1111000000000000
1111000000000000
1111000000000000
1111000000000000
1111000000000000
1111000000000000
1111000000000000
1111000000000000
1111000000000000
1111000000000000
1111000000000000
1111000000000000
1111000000000000
1111000000000000
1111000000000000
1111000000000000
1111000000000000
1111000000000000
1111000000000000
1111000000000000
1111000000000000
1111000000000000
1111000000000000
1111000000000000
1111000000000000
1111000000000000
1111000000000000
1111000000000000
1111000000000000
1111000000000000
1111000000000000
1111000000000000
1111000000000000
1111000000000000
1111000000000000
1111000000000000
1111000000000000
1111000000000000
1111000000000000
1111000000000000
1111000000000000
1111000000000000
1111000000000000
1111000000000000
1111000000000000
1111000000000000
1111000000000000
1111000000000000
1111000000000000
1111000000000000
1111000000000000
1111000000000000
1111000000000000
1111000000000000
1111000000000000
1111000000000000
1111000000000000
1111000000000000
1111000000000000
1111000000000000
1111000000000000
1111000000000000
1111000000000000
1111000000000000
1111000000000000
1111000000000000
1111000000000000
1111000000000000
1111000000000000
1111000000000000
1111000000000000
1111000000000000
1111000000000000
1111000000000000
1111000000000000
1111000000000000
1111000000000000
1111000000000000
1111000000000000
1111000000000000
1111000000000000
1111000000000000
1111000000000000
1111000000000000
1111000000000000
1111000000000000
1111000000000000
1111000000000000
1111000000000000
1111000000000000
1111000000000000
1111000000000000
1111000000000000
1111000000000000
1111000000000000
1111000000000000
1111000000000000
1111000000000000
1111000000000000
1111000000000000
1111000000000000
1111000000000000
1111000000000000
1111000000000000
1111000000000000
1111000000000000
1111000000000000
1111000000000000
1111000000000000
1111000000000000
1111000000000000
1111000000000000
1111000000000000
1111000000000000
1111000000000000
1111000000000000
1111000000000000
1111000000000000
1111000000000000
1111000000000000
1111000000000000
1111000000000000
1111000000000000
1111000000000000
1111000000000000
1111000000000000
1111000000000000
1111000000000000
1111000000000000
1111000000000000
1111000000000000
1111000000000000
1111000000000000
1111000000000000
1111000000000000
1111000000000000
1111000000000000
1111000000000000
1111000000000000
1111000000000000
1111000000000000
1111000000000000
1111000000000000
1111000000000000
1111000000000000
1111000000000000
1111000000000000
1111000000000000
1111000000000000
1111000000000000
1111000000000000
1111000000000000
1111000000000000
1111000000000000
1111000000000000
1111000000000000
1111000000000000
1111000000000000
1111000000000000
1111000000000000
1111000000000000
1111000000000000
1111000000000000
1111000000000000
1111000000000000
1111000000000000
1111000000000000
1111000000000000
1111000000000000
1111000000000000
1111000000000000
1111000000000000
1111000000000000
1111000000000000
1111000000000000
1111000000000000
1111000000000000
1111000000000000
1111000000000000
1111000000000000
1111000000000000
1111000000000000
1111000000000000
1111000000000000
1111000000000000
1111000000000000
1111000000000000
1111000000000000
1111000000000000
1111000000000000
1111000000000000
1111000000000000
1111000000000000
1111000000000000
1111000000000000
1111000000000000
1111000000000000
1111000000000000
1111000000000000
1111000000000000
1111000000000000
1111000000000000
1111000000000000
1111000000000000
1111000000000000
1111000000000000
1111000000000000
1111000000000000
1111000000000000
1111000000000000
1111000000000000
1111000000000000
1111000000000000
1111000000000000
1111000000000000
1111000000000000
1111000000000000
1111000000000000
1111000000000000
1111000000000000
1111000000000000
1111000000000000
1111000000000000
1111000000000000
1111000000000000
1111000000000000
1111000000000000
1111000000000000
1111000000000000
1111000000000000
1111000000000000
1111000000000000
1111000000000000
1111000000000000
1111000000000000
1111000000000000
1111000000000000
1111000000000000
1111000000000000
1111000000000000
1111000000000000
1111000000000000
1111000000000000
1111000000000000
1111000000000000
1111000000000000
1111000000000000
1111000000000000
1111000000000000
1111000000000000
1111000000000000
1111000000000000
1111000000000000
1111000000000000
1111000000000000
1111000000000000
1111000000000000
1111000000000000
1111000000000000
1111000000000000
1111000000000000
1111000000000000
1111000000000000
1111000000000000
1111000000000000
1111000000000000
1111000000000000
1111000000000000
1111000000000000
1111000000000000
1111000000000000
1111000000000000
1111000000000000
1111000000000000
1111000000000000
1111000000000000
1111000000000000
1111000000000000
1111000000000000
1111000000000000
1111000000000000
1111000000000000
1111000000000000
1111000000000000
1111000000000000
1111000000000000
1111000000000000
1111000000000000
1111000000000000
1111000000000000
1111000000000000
1111000000000000
1111000000000000
1111000000000000
1111000000000000
1111000000000000
1111000000000000
1111000000000000
1111000000000000
1111000000000000
1111000000000000
1111000000000000
1111000000000000
1111000000000000
1111000000000000
1111000000000000
1111000000000000
1111000000000000
1111000000000000
1111000000000000
1111000000000000
1111000000000000
1111000000000000
1111000000000000
1111000000000000
1111000000000000
1111000000000000
1111000000000000
1111000000000000
