0011000000000000
0011000000000000
0011000000000000
0011000000000000
0010000000000000
0010000000000000
0010000000000000
0010000000000000
0010000000000000
0011000000000000
0011000000000000
0011000000000000
0011000000000000
0011000000000000
0010000000000000
0011000000000000
0011000000000000
0011000000000000
0011000000000000
0010000000000000
0011000000000000
0011000000000000
0011000000000000
0011000000000000
0010000000000000
0011000000000000
0010000000000000
0010000000000000
0011000000000000
0010000000000000
0011000000000000
0011000000000000
0010000000000000
0010000000000000
0011000000000000
0010000000000000
0011000000000000
0010000000000000
0010000000000000
0011000000000000
0010000000000000
0010000000000000
0011000000000000
0011000000000000
0010000000000000
0011000000000000
0010000000000000
0010000000000000
0010000000000000
0010000000000000
0010000000000000
0011000000000000
0011000000000000
0011000000000000
0011000000000000
0011000000000000
0010000000000000
0010000000000000
0010000000000000
0011000000000000
0011000000000000
0010000000000000
0010000000000000
0011000000000000
0010000000000000
0011000000000000
0011000000000000
0010000000000000
0010000000000000
0010000000000000
0010000000000000
0011000000000000
0011000000000000
0011000000000000
0011000000000000
0010000000000000
0010000000000000
0011000000000000
0011000000000000
0011000000000000
0011000000000000
0011000000000000
0011000000000000
0011000000000000
0011000000000000
0011000000000000
0011000000000000
0010000000000000
0011000000000000
0010000000000000
0011000000000000
0010000000000000
0010000000000000
0010000000000000
0010000000000000
0010000000000000
0010000000000000
0011000000000000
0010000000000000
0010000000000000
0011000000000000
0011000000000000
0010000000000000
0010000000000000
0010000000000000
0010000000000000
0010000000000000
0011000000000000
0010000000000000
0010000000000000
0010000000000000
0011000000000000
0011000000000000
0011000000000000
0011000000000000
0011000000000000
0010000000000000
0010000000000000
0010000000000000
0010000000000000
0010000000000000
0010000000000000
0010000000000000
0011000000000000
0010000000000000
0010000000000000
0010000000000000
0011000000000000
0010000000000000
0010000000000000
0010000000000000
0010000000000000
0011000000000000
0011000000000000
0011000000000000
0011000000000000
0011000000000000
0010000000000000
0011000000000000
0010000000000000
0011000000000000
0011000000000000
0011000000000000
0010000000000000
0010000000000000
0010000000000000
0010000000000000
0010000000000000
0011000000000000
0011000000000000
0011000000000000
0010000000000000
0010000000000000
0011000000000000
0011000000000000
0010000000000000
0010000000000000
0011000000000000
0010000000000000
0010000000000000
0010000000000000
0011000000000000
0010000000000000
0011000000000000
0010000000000000
0011000000000000
0011000000000000
0011000000000000
0011000000000000
0011000000000000
0011000000000000
0011000000000000
0010000000000000
0010000000000000
0010000000000000
0011000000000000
0010000000000000
0010000000000000
0010000000000000
0010000000000000
0010000000000000
0010000000000000
0010000000000000
0011000000000000
0011000000000000
0010000000000000
0011000000000000
0010000000000000
0011000000000000
0010000000000000
0010000000000000
0010000000000000
0010000000000000
0011000000000000
0011000000000000
0010000000000000
0010000000000000
0011000000000000
0010000000000000
0010000000000000
0011000000000000
0011000000000000
0010000000000000
0010000000000000
0011000000000000
0011000000000000
0010000000000000
0010000000000000
0011000000000000
0011000000000000
0010000000000000
0010000000000000
0011000000000000
0011000000000000
0011000000000000
0010000000000000
0011000000000000
0010000000000000
0010000000000000
0010000000000000
0011000000000000
0011000000000000
0011000000000000
0010000000000000
0010000000000000
0011000000000000
0011000000000000
0010000000000000
0011000000000000
0011000000000000
0010000000000000
0011000000000000
0011000000000000
0011000000000000
0010000000000000
0010000000000000
0010000000000000
0010000000000000
0011000000000000
0011000000000000
0010000000000000
0010000000000000
0010000000000000
0011000000000000
0011000000000000
0010000000000000
0010000000000000
0010000000000000
0010000000000000
0010000000000000
0011000000000000
0011000000000000
0011000000000000
0011000000000000
0010000000000000
0010000000000000
0011000000000000
0010000000000000
0011000000000000
0011000000000000
0011000000000000
0010000000000000
0010000000000000
0010000000000000
0010000000000000
0011000000000000
0010000000000000
0011000000000000
0010000000000000
0010000000000000
0011000000000000
0011000000000000
0010000000000000
0011000000000000
0011000000000000
0011000000000000
0010000000000000
0011000000000000
0010000000000000
0010000000000000
0010000000000000
0010000000000000
0011000000000000
0011000000000000
0011000000000000
0011000000000000
0010000000000000
0010000000000000
0010000000000000
0011000000000000
0011000000000000
0010000000000000
0010000000000000
0010000000000000
0011000000000000
0010000000000000
0011000000000000
0011000000000000
0010000000000000
0011000000000000
0011000000000000
0011000000000000
0011000000000000
0011000000000000
0010000000000000
0010000000000000
0010000000000000
0010000000000000
0010000000000000
0011000000000000
0011000000000000
0011000000000000
0011000000000000
0011000000000000
0011000000000000
0011000000000000
0010000000000000
0010000000000000
0010000000000000
0010000000000000
0010000000000000
0011000000000000
0011000000000000
0011000000000000
0011000000000000
0011000000000000
0011000000000000
0010000000000000
0010000000000000
0010000000000000
0011000000000000
0010000000000000
0011000000000000
0011000000000000
0010000000000000
0011000000000000
0010000000000000
0010000000000000
0011000000000000
0011000000000000
0011000000000000
0011000000000000
0010000000000000
0011000000000000
0011000000000000
0011000000000000
0011000000000000
0011000000000000
0011000000000000
0010000000000000
0011000000000000
0010000000000000
0011000000000000
0010000000000000
0010000000000000
0010000000000000
0011000000000000
0011000000000000
0011000000000000
0010000000000000
0010000000000000
0010000000000000
0010000000000000
0010000000000000
0011000000000000
0011000000000000
0010000000000000
0010000000000000
0011000000000000
0011000000000000
0011000000000000
0011000000000000
0011000000000000
0010000000000000
0010000000000000
0010000000000000
0011000000000000
0010000000000000
0010000000000000
0010000000000000
0011000000000000
0011000000000000
0011000000000000
0011000000000000
0010000000000000
0011000000000000
0011000000000000
0011000000000000
0011000000000000
0011000000000000
0011000000000000
0011000000000000
0010000000000000
0011000000000000
0011000000000000
0011000000000000
0011000000000000
0011000000000000
0010000000000000
0011000000000000
0011000000000000
0011000000000000
0011000000000000
0010000000000000
0010000000000000
0011000000000000
0011000000000000
0011000000000000
0011000000000000
0011000000000000
0010000000000000
0011000000000000
0010000000000000
0010000000000000
0010000000000000
0010000000000000
0010000000000000
0011000000000000
0011000000000000
0011000000000000
0011000000000000
0010000000000000
0010000000000000
0011000000000000
0011000000000000
0011000000000000
0010000000000000
0011000000000000
0011000000000000
0011000000000000
0011000000000000
0010000000000000
0010000000000000
0011000000000000
0011000000000000
0010000000000000
0010000000000000
0011000000000000
0010000000000000
0011000000000000
0011000000000000
0011000000000000
0011000000000000
0010000000000000
0010000000000000
0010000000000000
0010000000000000
0011000000000000
0010000000000000
0011000000000000
0011000000000000
0010000000000000
0010000000000000
0010000000000000
0010000000000000
0010000000000000
0010000000000000
0010000000000000
0011000000000000
0010000000000000
0010000000000000
0010000000000000
0011000000000000
0010000000000000
0010000000000000
0011000000000000
0010000000000000
0011000000000000
0011000000000000
0011000000000000
0010000000000000
0011000000000000
0011000000000000
0010000000000000
0010000000000000
0011000000000000
0011000000000000
0011000000000000
0010000000000000
0011000000000000
0011000000000000
0010000000000000
0010000000000000
0011000000000000
0011000000000000
0011000000000000
0011000000000000
0010000000000000
0010000000000000
0010000000000000
0010000000000000
0011000000000000
0011000000000000
0011000000000000
0011000000000000
0010000000000000
0010000000000000
0011000000000000
0011000000000000
0011000000000000
0011000000000000
0011000000000000
0011000000000000
0011000000000000
0011000000000000
0010000000000000
0011000000000000
0011000000000000
0011000000000000
0010000000000000
0011000000000000
0011000000000000
0011000000000000
0011000000000000
0011000000000000
0011000000000000
0011000000000000
0010000000000000
0011000000000000
0011000000000000
0010000000000000
0010000000000000
0010000000000000
0010000000000000
0010000000000000
0010000000000000
0011000000000000
0011000000000000
0011000000000000
0010000000000000
0011000000000000
0010000000000000
0011000000000000
0011000000000000
0011000000000000
0011000000000000
0011000000000000
0010000000000000
0010000000000000
0010000000000000
0010000000000000
0011000000000000
0010000000000000
0010000000000000
0011000000000000
0011000000000000
0010000000000000
0011000000000000
0010000000000000
0010000000000000
0010000000000000
0011000000000000
0010000000000000
0010000000000000
0010000000000000
0011000000000000
0011000000000000
0011000000000000
0011000000000000
0010000000000000
0011000000000000
0011000000000000
0011000000000000
0011000000000000
0010000000000000
0010000000000000
0010000000000000
0010000000000000
0011000000000000
0011000000000000
0011000000000000
0011000000000000
0010000000000000
0011000000000000
0010000000000000
0010000000000000
0011000000000000
0011000000000000
0011000000000000
0011000000000000
0011000000000000
0011000000000000
0011000000000000
0011000000000000
0010000000000000
0011000000000000
0011000000000000
0010000000000000
0010000000000000
0011000000000000
0011000000000000
0010000000000000
0010000000000000
0011000000000000
0010000000000000
0010000000000000
0011000000000000
0011000000000000
0010000000000000
0011000000000000
0010000000000000
0010000000000000
0010000000000000
0010000000000000
0011000000000000
0011000000000000
0010000000000000
0010000000000000
0011000000000000
0010000000000000
0011000000000000
0010000000000000
0010000000000000
0011000000000000
0010000000000000
0011000000000000
0011000000000000
0011000000000000
0011000000000000
0011000000000000
0010000000000000
0011000000000000
0010000000000000
0010000000000000
0010000000000000
0010000000000000
0010000000000000
0010000000000000
0011000000000000
0010000000000000
0010000000000000
0010000000000000
0011000000000000
0010000000000000
0011000000000000
0011000000000000
0011000000000000
0010000000000000
0011000000000000
0010000000000000
0011000000000000
0011000000000000
0011000000000000
0011000000000000
0010000000000000
0011000000000000
0011000000000000
0011000000000000
0010000000000000
0011000000000000
0011000000000000
0011000000000000
0011000000000000
0011000000000000
0011000000000000
0010000000000000
0011000000000000
0011000000000000
0011000000000000
0010000000000000
0011000000000000
0011000000000000
0011000000000000
0010000000000000
0010000000000000
0010000000000000
0010000000000000
0010000000000000
0011000000000000
0010000000000000
0010000000000000
0011000000000000
0011000000000000
0010000000000000
0010000000000000
0010000000000000
0011000000000000
0011000000000000
0010000000000000
0010000000000000
0010000000000000
0010000000000000
0010000000000000
0010000000000000
0010000000000000
0011000000000000
0010000000000000
0011000000000000
0011000000000000
0011000000000000
0010000000000000
0010000000000000
0011000000000000
0011000000000000
0010000000000000
0010000000000000
0010000000000000
0011000000000000
0011000000000000
0010000000000000
0010000000000000
0010000000000000
0011000000000000
0010000000000000
0010000000000000
0010000000000000
0010000000000000
0011000000000000
0011000000000000
0010000000000000
0010000000000000
0011000000000000
0011000000000000
0010000000000000
0010000000000000
0010000000000000
0011000000000000
0010000000000000
0010000000000000
0010000000000000
0011000000000000
0010000000000000
0010000000000000
0011000000000000
0010000000000000
0010000000000000
0010000000000000
0010000000000000
0010000000000000
0011000000000000
0011000000000000
0011000000000000
0011000000000000
0011000000000000
0011000000000000
0011000000000000
0011000000000000
0011000000000000
0011000000000000
0010000000000000
0010000000000000
0010000000000000
0010000000000000
0010000000000000
0011000000000000
0010000000000000
0011000000000000
0011000000000000
0011000000000000
0010000000000000
0010000000000000
0010000000000000
0010000000000000
0010000000000000
0011000000000000
0011000000000000
0010000000000000
0010000000000000
0010000000000000
0011000000000000
0011000000000000
0010000000000000
0011000000000000
0011000000000000
0010000000000000
0010000000000000
0010000000000000
0011000000000000
0011000000000000
0011000000000000
0010000000000000
0011000000000000
0011000000000000
0010000000000000
0011000000000000
0010000000000000
0010000000000000
0010000000000000
0010000000000000
0011000000000000
0010000000000000
0010000000000000
0010000000000000
0010000000000000
0010000000000000
0011000000000000
0010000000000000
0011000000000000
0011000000000000
0011000000000000
0011000000000000
0011000000000000
0011000000000000
0010000000000000
0010000000000000
0011000000000000
0011000000000000
0011000000000000
0010000000000000
0011000000000000
0010000000000000
0010000000000000
0011000000000000
0010000000000000
0010000000000000
0011000000000000
0011000000000000
0010000000000000
0011000000000000
0010000000000000
0010000000000000
0011000000000000
0010000000000000
0011000000000000
0011000000000000
0010000000000000
0010000000000000
0010000000000000
0011000000000000
0010000000000000
0011000000000000
0011000000000000
0011000000000000
0011000000000000
0010000000000000
0010000000000000
0011000000000000
0011000000000000
0010000000000000
0011000000000000
0011000000000000
0010000000000000
0011000000000000
0010000000000000
0011000000000000
0011000000000000
0011000000000000
0011000000000000
0011000000000000
0011000000000000
0011000000000000
0011000000000000
0010000000000000
0010000000000000
0010000000000000
0011000000000000
0011000000000000
0011000000000000
0011000000000000
0010000000000000
0010000000000000
0010000000000000
0011000000000000
0011000000000000
0011000000000000
0010000000000000
0010000000000000
0011000000000000
0011000000000000
0010000000000000
0011000000000000
0010000000000000
0010000000000000
0010000000000000
0010000000000000
0010000000000000
0010000000000000
0011000000000000
0010000000000000
0011000000000000
0010000000000000
0011000000000000
0010000000000000
0010000000000000
0010000000000000
0011000000000000
0010000000000000
0010000000000000
0011000000000000
0011000000000000
0011000000000000
0011000000000000
0011000000000000
0010000000000000
0011000000000000
0011000000000000
0011000000000000
0011000000000000
0011000000000000
0011000000000000
0011000000000000
0011000000000000
0010000000000000
0010000000000000
0010000000000000
0011000000000000
0010000000000000
0010000000000000
0011000000000000
0010000000000000
0010000000000000
0011000000000000
0010000000000000
0011000000000000
0010000000000000
0010000000000000
0010000000000000
0010000000000000
0010000000000000
0011000000000000
0011000000000000
0010000000000000
0010000000000000
0010000000000000
0011000000000000
0010000000000000
0011000000000000
0011000000000000
0011000000000000
0011000000000000
0010000000000000
0011000000000000
0010000000000000
0010000000000000
0011000000000000
0011000000000000
0011000000000000
0011000000000000
0011000000000000
0011000000000000
0011000000000000
0011000000000000
0011000000000000
0010000000000000
0010000000000000
0011000000000000
0011000000000000
0011000000000000
0011000000000000
0010000000000000
0010000000000000
0011000000000000
0011000000000000
0011000000000000
0011000000000000
0010000000000000
0010000000000000
0010000000000000
0011000000000000
0010000000000000
0010000000000000
0010000000000000
0011000000000000
0010000000000000
0010000000000000
0010000000000000
0010000000000000
0010000000000000
0011000000000000
0010000000000000
0010000000000000
0010000000000000
0010000000000000
0010000000000000
0010000000000000
0010000000000000
0010000000000000
0011000000000000
0010000000000000
0010000000000000
0011000000000000
0010000000000000
0010000000000000
0010000000000000
0011000000000000
0011000000000000
0011000000000000
0010000000000000
0010000000000000
0011000000000000
0010000000000000
0010000000000000
0010000000000000
0010000000000000
0010000000000000
0011000000000000
0010000000000000
0011000000000000
0010000000000000
0011000000000000
0010000000000000
0010000000000000
0011000000000000
0011000000000000
0010000000000000
0010000000000000
0011000000000000
0011000000000000
0010000000000000
0010000000000000
0011000000000000
0011000000000000
0011000000000000
0011000000000000
0010000000000000
0010000000000000
0010000000000000
0011000000000000
0011000000000000
0010000000000000
0011000000000000
0011000000000000
0010000000000000
0010000000000000
0010000000000000
0011000000000000
0010000000000000
0010000000000000
0010000000000000
0011000000000000
0011000000000000
0010000000000000
0011000000000000
0011000000000000
0011000000000000
0010000000000000
0010000000000000
0010000000000000
0010000000000000
0010000000000000
0011000000000000
0011000000000000
0011000000000000
0011000000000000
0011000000000000
0010000000000000
0010000000000000
0011000000000000
0010000000000000
0010000000000000
0011000000000000
0011000000000000
0011000000000000
0011000000000000
0010000000000000
0011000000000000
0010000000000000
0010000000000000
0010000000000000
0011000000000000
0011000000000000
0010000000000000
0010000000000000
0010000000000000
0011000000000000
0011000000000000
0011000000000000
0010000000000000
0010000000000000
0010000000000000
0010000000000000
0011000000000000
0010000000000000
0011000000000000
0010000000000000
0011000000000000
0010000000000000
0011000000000000
0011000000000000
0010000000000000
0011000000000000
0011000000000000
0011000000000000
0011000000000000
0010000000000000
0011000000000000
0011000000000000
0011000000000000
0010000000000000
0010000000000000
0010000000000000
0010000000000000
0011000000000000
0010000000000000
0010000000000000
0010000000000000
0011000000000000
0010000000000000
0010000000000000
0010000000000000
0011000000000000
0010000000000000
0011000000000000
0011000000000000
0010000000000000
0010000000000000
0010000000000000
0011000000000000
0010000000000000
0010000000000000
0010000000000000
0010000000000000
0010000000000000
0010000000000000
0010000000000000
0011000000000000
0010000000000000
0011000000000000
0011000000000000
0010000000000000
0011000000000000
0011000000000000
0011000000000000
0011000000000000
0010000000000000
0011000000000000
0010000000000000
0010000000000000
0011000000000000
0011000000000000
0010000000000000
0010000000000000
0010000000000000
0010000000000000
0011000000000000
0011000000000000
0010000000000000
0010000000000000
0011000000000000
0011000000000000
0011000000000000
0010000000000000
0010000000000000
0010000000000000
0011000000000000
0010000000000000
0010000000000000
0010000000000000
0010000000000000
0010000000000000
0011000000000000
0010000000000000
0011000000000000
0011000000000000
0010000000000000
0011000000000000
0011000000000000
0011000000000000
0011000000000000
0011000000000000
0011000000000000
0011000000000000
0011000000000000
0011000000000000
0011000000000000
0010000000000000
0011000000000000
0011000000000000
0011000000000000
0011000000000000
0011000000000000
0010000000000000
0011000000000000
0011000000000000
0011000000000000
0011000000000000
0011000000000000
0011000000000000
0011000000000000
0011000000000000
0010000000000000
0010000000000000
0011000000000000
0011000000000000
0011000000000000
0011000000000000
0011000000000000
0010000000000000
0010000000000000
0010000000000000
0010000000000000
0010000000000000
0011000000000000
0011000000000000
0010000000000000
0011000000000000
0011000000000000
0010000000000000
0010000000000000
0011000000000000
0010000000000000
0010000000000000
0010000000000000
0011000000000000
0011000000000000
0011000000000000
0011000000000000
0011000000000000
0011000000000000
0010000000000000
0010000000000000
0010000000000000
0011000000000000
0010000000000000
0011000000000000
0011000000000000
0011000000000000
0011000000000000
0011000000000000
0010000000000000
0010000000000000
0010000000000000
0010000000000000
0011000000000000
0011000000000000
0011000000000000
0011000000000000
0011000000000000
0011000000000000
0011000000000000
0011000000000000
0010000000000000
0011000000000000
0011000000000000
0011000000000000
0011000000000000
0010000000000000
0010000000000000
0011000000000000
0010000000000000
0011000000000000
0010000000000000
0011000000000000
0010000000000000
0010000000000000
0010000000000000
0011000000000000
0010000000000000
0010000000000000
0011000000000000
0010000000000000
0010000000000000
0010000000000000
0010000000000000
0010000000000000
0011000000000000
0011000000000000
0011000000000000
0010000000000000
0011000000000000
0010000000000000
0010000000000000
0011000000000000
0010000000000000
0011000000000000
0011000000000000
0010000000000000
0011000000000000
0011000000000000
0011000000000000
0011000000000000
0010000000000000
0010000000000000
0010000000000000
0010000000000000
0010000000000000
0010000000000000
0011000000000000
0011000000000000
0011000000000000
0011000000000000
0010000000000000
0010000000000000
0011000000000000
0011000000000000
0011000000000000
0011000000000000
0011000000000000
0011000000000000
0011000000000000
0011000000000000
0011000000000000
0011000000000000
0011000000000000
0011000000000000
0011000000000000
0011000000000000
0011000000000000
0011000000000000
0010000000000000
0011000000000000
0010000000000000
0010000000000000
0010000000000000
0011000000000000
0010000000000000
0010000000000000
0010000000000000
0010000000000000
0010000000000000
0010000000000000
0010000000000000
0010000000000000
0010000000000000
0010000000000000
0010000000000000
0010000000000000
0010000000000000
0010000000000000
0011000000000000
0011000000000000
0011000000000000
0010000000000000
0011000000000000
0011000000000000
0010000000000000
0011000000000000
0011000000000000
0011000000000000
0010000000000000
0011000000000000
0011000000000000
0011000000000000
0011000000000000
0010000000000000
0010000000000000
0010000000000000
0010000000000000
0011000000000000
0010000000000000
0010000000000000
0011000000000000
0011000000000000
0011000000000000
0011000000000000
0010000000000000
0010000000000000
0010000000000000
0010000000000000
0010000000000000
0010000000000000
0011000000000000
0011000000000000
0010000000000000
0010000000000000
0011000000000000
0010000000000000
0011000000000000
0010000000000000
0011000000000000
0011000000000000
0011000000000000
0011000000000000
0010000000000000
0010000000000000
0010000000000000
0011000000000000
0010000000000000
0010000000000000
0011000000000000
0010000000000000
0011000000000000
0011000000000000
0011000000000000
0010000000000000
0011000000000000
0011000000000000
0011000000000000
0011000000000000
0010000000000000
0010000000000000
0010000000000000
0010000000000000
0010000000000000
0011000000000000
0011000000000000
0011000000000000
0010000000000000
0011000000000000
0011000000000000
0010000000000000
0010000000000000
0010000000000000
0010000000000000
0010000000000000
0011000000000000
0011000000000000
0011000000000000
0011000000000000
0010000000000000
0010000000000000
0010000000000000
0010000000000000
0010000000000000
0010000000000000
0011000000000000
0011000000000000
0011000000000000
0010000000000000
0010000000000000
0010000000000000
0011000000000000
0010000000000000
0011000000000000
0010000000000000
0011000000000000
0010000000000000
0010000000000000
0010000000000000
0010000000000000
0011000000000000
0010000000000000
0010000000000000
0010000000000000
0011000000000000
0010000000000000
0010000000000000
0010000000000000
0010000000000000
0010000000000000
0011000000000000
0010000000000000
0010000000000000
0010000000000000
0010000000000000
0010000000000000
0011000000000000
0010000000000000
0011000000000000
0011000000000000
0011000000000000
0011000000000000
0011000000000000
0011000000000000
0011000000000000
0011000000000000
0010000000000000
0010000000000000
0010000000000000
0010000000000000
0011000000000000
0011000000000000
0011000000000000
0011000000000000
0011000000000000
0011000000000000
0011000000000000
0011000000000000
0010000000000000
0011000000000000
0011000000000000
0010000000000000
0010000000000000
0011000000000000
0010000000000000
0011000000000000
0011000000000000
0011000000000000
0011000000000000
0010000000000000
0010000000000000
0010000000000000
0010000000000000
0011000000000000
0010000000000000
0011000000000000
0011000000000000
0010000000000000
0010000000000000
0010000000000000
0010000000000000
0010000000000000
0010000000000000
0010000000000000
0010000000000000
0010000000000000
0011000000000000
0011000000000000
0011000000000000
0010000000000000
0011000000000000
0010000000000000
0010000000000000
0010000000000000
0010000000000000
0010000000000000
0011000000000000
0010000000000000
0010000000000000
0010000000000000
0010000000000000
0010000000000000
0010000000000000
0010000000000000
0011000000000000
0011000000000000
0010000000000000
0010000000000000
0011000000000000
0011000000000000
0010000000000000
0011000000000000
0010000000000000
0010000000000000
0010000000000000
0010000000000000
0010000000000000
0011000000000000
0010000000000000
0010000000000000
0010000000000000
0010000000000000
0011000000000000
0010000000000000
0011000000000000
0010000000000000
0011000000000000
0010000000000000
0011000000000000
0011000000000000
0010000000000000
0010000000000000
0011000000000000
0011000000000000
0010000000000000
0011000000000000
0011000000000000
0010000000000000
0011000000000000
0011000000000000
0010000000000000
0011000000000000
0010000000000000
0011000000000000
0011000000000000
0010000000000000
0010000000000000
0011000000000000
0010000000000000
0011000000000000
0011000000000000
0010000000000000
0010000000000000
0011000000000000
0010000000000000
0010000000000000
0010000000000000
0010000000000000
0010000000000000
0010000000000000
0010000000000000
0010000000000000
0011000000000000
0010000000000000
0010000000000000
0010000000000000
0010000000000000
0011000000000000
0010000000000000
0010000000000000
0011000000000000
0011000000000000
0011000000000000
0011000000000000
0010000000000000
0010000000000000
0010000000000000
0010000000000000
0011000000000000
0010000000000000
0010000000000000
0010000000000000
0010000000000000
0011000000000000
0011000000000000
0011000000000000
0010000000000000
0010000000000000
0011000000000000
0011000000000000
0011000000000000
0010000000000000
0010000000000000
0010000000000000
0010000000000000
0011000000000000
0011000000000000
0011000000000000
0011000000000000
0011000000000000
0011000000000000
0011000000000000
0011000000000000
0011000000000000
0011000000000000
0011000000000000
0010000000000000
0010000000000000
0011000000000000
0011000000000000
0010000000000000
0010000000000000
0011000000000000
0011000000000000
0011000000000000
0010000000000000
0011000000000000
0010000000000000
0011000000000000
0010000000000000
0010000000000000
0010000000000000
0010000000000000
0011000000000000
0010000000000000
0010000000000000
0010000000000000
0011000000000000
0011000000000000
0011000000000000
0011000000000000
0010000000000000
0010000000000000
0010000000000000
0011000000000000
0010000000000000
0011000000000000
0010000000000000
0011000000000000
0010000000000000
0010000000000000
0011000000000000
0011000000000000
0011000000000000
0010000000000000
0010000000000000
0010000000000000
0011000000000000
0011000000000000
0010000000000000
0010000000000000
0010000000000000
0010000000000000
0011000000000000
0010000000000000
0010000000000000
0010000000000000
0010000000000000
0010000000000000
0010000000000000
0010000000000000
0010000000000000
0010000000000000
0010000000000000
0011000000000000
0011000000000000
0011000000000000
0010000000000000
0010000000000000
0010000000000000
0010000000000000
0010000000000000
0010000000000000
0011000000000000
0011000000000000
0011000000000000
0010000000000000
0011000000000000
0010000000000000
0010000000000000
0010000000000000
0010000000000000
0011000000000000
0011000000000000
0010000000000000
0010000000000000
0010000000000000
0010000000000000
0011000000000000
0011000000000000
0010000000000000
0010000000000000
0010000000000000
0010000000000000
0010000000000000
0010000000000000
0010000000000000
0011000000000000
0011000000000000
0011000000000000
0011000000000000
0011000000000000
0010000000000000
0010000000000000
0011000000000000
0011000000000000
0011000000000000
0011000000000000
0011000000000000
0010000000000000
0011000000000000
0011000000000000
0010000000000000
0010000000000000
0010000000000000
0011000000000000
0011000000000000
0010000000000000
0011000000000000
0010000000000000
0011000000000000
0011000000000000
0011000000000000
0010000000000000
0010000000000000
0011000000000000
0011000000000000
0010000000000000
0010000000000000
0011000000000000
0010000000000000
0010000000000000
0010000000000000
0011000000000000
0011000000000000
0010000000000000
0010000000000000
0010000000000000
0011000000000000
0011000000000000
0011000000000000
0010000000000000
0010000000000000
0010000000000000
0011000000000000
0010000000000000
0011000000000000
0011000000000000
0011000000000000
0011000000000000
0011000000000000
0011000000000000
0011000000000000
0011000000000000
0011000000000000
0011000000000000
0011000000000000
0011000000000000
0010000000000000
0011000000000000
0010000000000000
0010000000000000
0011000000000000
0010000000000000
0011000000000000
0010000000000000
0011000000000000
0010000000000000
0010000000000000
0011000000000000
0010000000000000
0011000000000000
0010000000000000
0010000000000000
0010000000000000
0011000000000000
0010000000000000
0010000000000000
0010000000000000
0010000000000000
0011000000000000
0011000000000000
0011000000000000
0011000000000000
0010000000000000
0010000000000000
0010000000000000
0010000000000000
0010000000000000
0011000000000000
0011000000000000
0010000000000000
0011000000000000
0011000000000000
0010000000000000
0011000000000000
0010000000000000
0011000000000000
0010000000000000
0010000000000000
0010000000000000
0010000000000000
0011000000000000
0010000000000000
0010000000000000
0010000000000000
0011000000000000
0011000000000000
0011000000000000
0011000000000000
0010000000000000
0011000000000000
0010000000000000
0010000000000000
0011000000000000
0010000000000000
0010000000000000
0010000000000000
0010000000000000
0011000000000000
0010000000000000
0011000000000000
0011000000000000
0010000000000000
0011000000000000
0010000000000000
0010000000000000
0011000000000000
0010000000000000
0011000000000000
0010000000000000
0010000000000000
0011000000000000
0011000000000000
0011000000000000
0010000000000000
0011000000000000
0011000000000000
0011000000000000
0011000000000000
0010000000000000
0011000000000000
0011000000000000
0010000000000000
0011000000000000
0011000000000000
0011000000000000
0010000000000000
0010000000000000
0011000000000000
0010000000000000
0010000000000000
0010000000000000
0010000000000000
0011000000000000
0010000000000000
0011000000000000
0011000000000000
0011000000000000
0011000000000000
0011000000000000
0011000000000000
0011000000000000
0011000000000000
0011000000000000
0011000000000000
0010000000000000
0011000000000000
0011000000000000
0011000000000000
0011000000000000
0011000000000000
0010000000000000
0011000000000000
0011000000000000
0011000000000000
0010000000000000
0011000000000000
0011000000000000
0011000000000000
0011000000000000
0011000000000000
0010000000000000
0010000000000000
0010000000000000
0010000000000000
0010000000000000
0010000000000000
0010000000000000
0011000000000000
0010000000000000
0011000000000000
0011000000000000
0010000000000000
0010000000000000
0010000000000000
0010000000000000
0011000000000000
0011000000000000
0011000000000000
0011000000000000
0011000000000000
0010000000000000
0010000000000000
0010000000000000
0011000000000000
0011000000000000
0011000000000000
0011000000000000
0010000000000000
0010000000000000
0010000000000000
0011000000000000
0011000000000000
0011000000000000
0011000000000000
0011000000000000
0011000000000000
0011000000000000
0011000000000000
0011000000000000
0010000000000000
0011000000000000
0010000000000000
0010000000000000
0010000000000000
0010000000000000
0010000000000000
0011000000000000
0011000000000000
0010000000000000
0010000000000000
0010000000000000
0010000000000000
0010000000000000
0011000000000000
0011000000000000
0011000000000000
0011000000000000
0010000000000000
0011000000000000
0011000000000000
0010000000000000
0011000000000000
0010000000000000
0011000000000000
0011000000000000
0011000000000000
0011000000000000
0011000000000000
0010000000000000
0010000000000000
0010000000000000
0010000000000000
0011000000000000
0011000000000000
0010000000000000
0010000000000000
0011000000000000
0010000000000000
0010000000000000
0010000000000000
0011000000000000
0011000000000000
0011000000000000
0010000000000000
0010000000000000
0011000000000000
0010000000000000
0011000000000000
0010000000000000
0011000000000000
0010000000000000
0010000000000000
0011000000000000
0010000000000000
0011000000000000
0010000000000000
0011000000000000
0010000000000000
0011000000000000
0010000000000000
0010000000000000
0011000000000000
0011000000000000
0010000000000000
0010000000000000
0010000000000000
0010000000000000
0011000000000000
0011000000000000
0011000000000000
0011000000000000
0011000000000000
0010000000000000
0010000000000000
0010000000000000
0010000000000000
0011000000000000
0010000000000000
0011000000000000
0011000000000000
0010000000000000
0010000000000000
0011000000000000
0011000000000000
0010000000000000
0010000000000000
0010000000000000
0011000000000000
0010000000000000
0010000000000000
0011000000000000
0010000000000000
0010000000000000
0010000000000000
0011000000000000
0010000000000000
0011000000000000
0010000000000000
0011000000000000
0010000000000000
0011000000000000
0011000000000000
0010000000000000
0010000000000000
0011000000000000
0010000000000000
0010000000000000
0010000000000000
0010000000000000
0010000000000000
0011000000000000
0010000000000000
0011000000000000
0010000000000000
0011000000000000
0011000000000000
0011000000000000
0011000000000000
0011000000000000
0011000000000000
0011000000000000
0010000000000000
0011000000000000
0011000000000000
0010000000000000
0010000000000000
0011000000000000
0010000000000000
0010000000000000
0010000000000000
0010000000000000
0010000000000000
0010000000000000
0011000000000000
0010000000000000
0010000000000000
0011000000000000
0011000000000000
0011000000000000
0011000000000000
0011000000000000
0010000000000000
0010000000000000
0011000000000000
0010000000000000
0011000000000000
0011000000000000
0011000000000000
0010000000000000
0010000000000000
0011000000000000
0011000000000000
0011000000000000
0011000000000000
0011000000000000
0010000000000000
0010000000000000
0010000000000000
0010000000000000
0010000000000000
0010000000000000
0010000000000000
0010000000000000
0011000000000000
0010000000000000
0011000000000000
0010000000000000
0011000000000000
0010000000000000
0010000000000000
0010000000000000
0010000000000000
0010000000000000
0011000000000000
0011000000000000
0011000000000000
0011000000000000
0010000000000000
0010000000000000
0010000000000000
0010000000000000
0011000000000000
0010000000000000
0010000000000000
0010000000000000
0011000000000000
0011000000000000
0010000000000000
0011000000000000
0011000000000000
0010000000000000
0010000000000000
0010000000000000
0010000000000000
0010000000000000
0011000000000000
0010000000000000
0010000000000000
0010000000000000
0011000000000000
0010000000000000
0010000000000000
0010000000000000
0010000000000000
0011000000000000
0010000000000000
0011000000000000
0011000000000000
0011000000000000
0011000000000000
0011000000000000
0011000000000000
0011000000000000
0011000000000000
0011000000000000
0010000000000000
0011000000000000
0011000000000000
0011000000000000
0010000000000000
0010000000000000
0010000000000000
0011000000000000
0010000000000000
0011000000000000
0010000000000000
0010000000000000
0011000000000000
0011000000000000
0010000000000000
0010000000000000
0011000000000000
0011000000000000
0011000000000000
0010000000000000
0010000000000000
0010000000000000
0011000000000000
0011000000000000
0011000000000000
0011000000000000
0010000000000000
0011000000000000
0010000000000000
0010000000000000
0010000000000000
0011000000000000
0011000000000000
0011000000000000
0011000000000000
0011000000000000
0011000000000000
0010000000000000
0010000000000000
0010000000000000
0010000000000000
0011000000000000
0011000000000000
0010000000000000
0011000000000000
0011000000000000
0011000000000000
0010000000000000
0011000000000000
0011000000000000
0010000000000000
0010000000000000
0011000000000000
0011000000000000
0010000000000000
0011000000000000
0011000000000000
0011000000000000
0011000000000000
0010000000000000
0011000000000000
0011000000000000
0010000000000000
0010000000000000
0010000000000000
0010000000000000
0011000000000000
0011000000000000
0011000000000000
0011000000000000
0010000000000000
0011000000000000
0010000000000000
0011000000000000
0011000000000000
0010000000000000
0011000000000000
0010000000000000
0010000000000000
0010000000000000
0011000000000000
0011000000000000
0011000000000000
0011000000000000
0011000000000000
0011000000000000
0010000000000000
0010000000000000
0011000000000000
0011000000000000
0011000000000000
0010000000000000
0011000000000000
0011000000000000
0011000000000000
0011000000000000
0011000000000000
0011000000000000
0010000000000000
0010000000000000
0011000000000000
0011000000000000
0011000000000000
0010000000000000
0011000000000000
0011000000000000
0011000000000000
0011000000000000
0011000000000000
0011000000000000
0010000000000000
0010000000000000
0010000000000000
0010000000000000
0011000000000000
0010000000000000
0010000000000000
0010000000000000
0010000000000000
0010000000000000
0010000000000000
0010000000000000
0011000000000000
0010000000000000
0011000000000000
0010000000000000
0010000000000000
0011000000000000
0010000000000000
0011000000000000
0011000000000000
0011000000000000
0011000000000000
0011000000000000
0011000000000000
0011000000000000
0010000000000000
0010000000000000
0010000000000000
0010000000000000
0011000000000000
0011000000000000
0010000000000000
0010000000000000
0010000000000000
0010000000000000
0010000000000000
0010000000000000
0010000000000000
0011000000000000
0010000000000000
0010000000000000
0010000000000000
0011000000000000
0010000000000000
0011000000000000
0011000000000000
0011000000000000
0011000000000000
0010000000000000
0010000000000000
0011000000000000
0010000000000000
0010000000000000
0010000000000000
0010000000000000
0011000000000000
0011000000000000
0010000000000000
0010000000000000
0011000000000000
0010000000000000
0010000000000000
0010000000000000
0011000000000000
0011000000000000
0011000000000000
0011000000000000
0010000000000000
0010000000000000
0011000000000000
0011000000000000
0011000000000000
0011000000000000
0011000000000000
0011000000000000
0011000000000000
0011000000000000
0011000000000000
0011000000000000
0010000000000000
0010000000000000
0010000000000000
0010000000000000
0010000000000000
0010000000000000
0010000000000000
0011000000000000
0010000000000000
0010000000000000
0011000000000000
0011000000000000
0010000000000000
0011000000000000
0010000000000000
0010000000000000
0011000000000000
0011000000000000
0011000000000000
0011000000000000
0010000000000000
0010000000000000
0010000000000000
0011000000000000
0010000000000000
0011000000000000
0011000000000000
0011000000000000
0011000000000000
0010000000000000
0010000000000000
0010000000000000
0010000000000000
0010000000000000
0010000000000000
0011000000000000
0011000000000000
0010000000000000
0011000000000000
0010000000000000
0010000000000000
0010000000000000
0010000000000000
0010000000000000
0010000000000000
0011000000000000
0011000000000000
0011000000000000
0010000000000000
0011000000000000
0011000000000000
0010000000000000
0010000000000000
0010000000000000
0010000000000000
0010000000000000
0011000000000000
0010000000000000
0011000000000000
0010000000000000
0010000000000000
0010000000000000
0011000000000000
0011000000000000
0010000000000000
0010000000000000
0010000000000000
0010000000000000
0010000000000000
0010000000000000
0010000000000000
0010000000000000
0011000000000000
0011000000000000
0010000000000000
0010000000000000
0010000000000000
0011000000000000
0010000000000000
0011000000000000
0011000000000000
0011000000000000
0011000000000000
0010000000000000
0010000000000000
0010000000000000
0011000000000000
0010000000000000
0010000000000000
0011000000000000
0011000000000000
0011000000000000
0011000000000000
0011000000000000
0010000000000000
0010000000000000
0011000000000000
0011000000000000
0011000000000000
0010000000000000
0011000000000000
0011000000000000
0010000000000000
0010000000000000
0010000000000000
0011000000000000
0011000000000000
0011000000000000
0010000000000000
0011000000000000
0010000000000000
0010000000000000
0010000000000000
0011000000000000
0011000000000000
0011000000000000
0010000000000000
0010000000000000
0010000000000000
0010000000000000
0010000000000000
0010000000000000
0010000000000000
0011000000000000
0010000000000000
0011000000000000
0010000000000000
0010000000000000
0010000000000000
0011000000000000
0011000000000000
0010000000000000
0010000000000000
0011000000000000
0011000000000000
0010000000000000
0010000000000000
0010000000000000
0011000000000000
0010000000000000
0010000000000000
0011000000000000
0011000000000000
0010000000000000
0011000000000000
0010000000000000
0010000000000000
0011000000000000
0011000000000000
0011000000000000
0011000000000000
0011000000000000
0011000000000000
0011000000000000
0011000000000000
0011000000000000
0011000000000000
0011000000000000
0010000000000000
0010000000000000
0010000000000000
0011000000000000
0010000000000000
0011000000000000
0010000000000000
0010000000000000
0010000000000000
0011000000000000
0010000000000000
0011000000000000
0011000000000000
0011000000000000
0011000000000000
0010000000000000
0010000000000000
0010000000000000
0010000000000000
0010000000000000
0011000000000000
0010000000000000
0011000000000000
0011000000000000
0010000000000000
0011000000000000
0010000000000000
0011000000000000
0011000000000000
0010000000000000
0010000000000000
0010000000000000
0010000000000000
0010000000000000
0011000000000000
0010000000000000
0010000000000000
0011000000000000
0010000000000000
0011000000000000
0010000000000000
0010000000000000
0011000000000000
0011000000000000
0011000000000000
0011000000000000
0011000000000000
0011000000000000
0011000000000000
0011000000000000
0011000000000000
0011000000000000
0010000000000000
0010000000000000
0011000000000000
0010000000000000
0010000000000000
0010000000000000
0011000000000000
0011000000000000
0010000000000000
0010000000000000
0010000000000000
0011000000000000
0010000000000000
0010000000000000
0011000000000000
0010000000000000
0010000000000000
0010000000000000
0011000000000000
0011000000000000
0011000000000000
0011000000000000
0011000000000000
0010000000000000
0011000000000000
0011000000000000
0010000000000000
0011000000000000
0010000000000000
0011000000000000
0010000000000000
0010000000000000
0010000000000000
0011000000000000
0010000000000000
0010000000000000
0011000000000000
0011000000000000
0011000000000000
0011000000000000
0011000000000000
0010000000000000
0010000000000000
0011000000000000
0011000000000000
0010000000000000
0010000000000000
0011000000000000
0011000000000000
0011000000000000
0011000000000000
0011000000000000
0011000000000000
0010000000000000
0010000000000000
0010000000000000
0010000000000000
0010000000000000
0010000000000000
0010000000000000
0010000000000000
0011000000000000
0010000000000000
0010000000000000
0010000000000000
0010000000000000
0011000000000000
0011000000000000
0010000000000000
0011000000000000
0010000000000000
0010000000000000
0011000000000000
0011000000000000
0011000000000000
0011000000000000
0010000000000000
0010000000000000
0010000000000000
0011000000000000
0011000000000000
0010000000000000
0011000000000000
0011000000000000
0010000000000000
0010000000000000
0010000000000000
0010000000000000
0011000000000000
0010000000000000
0011000000000000
0011000000000000
0011000000000000
0011000000000000
0011000000000000
0010000000000000
0010000000000000
0010000000000000
0011000000000000
0010000000000000
0010000000000000
0010000000000000
0011000000000000
0011000000000000
0011000000000000
0010000000000000
0010000000000000
0011000000000000
0010000000000000
0010000000000000
0010000000000000
0011000000000000
0010000000000000
0011000000000000
0010000000000000
0010000000000000
0010000000000000
0011000000000000
0010000000000000
0010000000000000
0010000000000000
0010000000000000
0010000000000000
0010000000000000
0011000000000000
0011000000000000
0010000000000000
0011000000000000
0011000000000000
0010000000000000
0011000000000000
0011000000000000
0011000000000000
0011000000000000
0011000000000000
0011000000000000
0011000000000000
0011000000000000
0010000000000000
0010000000000000
0011000000000000
0011000000000000
0011000000000000
0010000000000000
0010000000000000
0011000000000000
0011000000000000
0010000000000000
0010000000000000
0010000000000000
0011000000000000
0011000000000000
0010000000000000
0011000000000000
0010000000000000
0010000000000000
0011000000000000
0011000000000000
0010000000000000
0010000000000000
0011000000000000
0011000000000000
0010000000000000
0011000000000000
0010000000000000
0011000000000000
0010000000000000
0010000000000000
0011000000000000
0011000000000000
0011000000000000
0011000000000000
0011000000000000
0011000000000000
0011000000000000
0011000000000000
0010000000000000
0010000000000000
0010000000000000
0010000000000000
0010000000000000
0011000000000000
0011000000000000
0011000000000000
0010000000000000
0010000000000000
0011000000000000
0011000000000000
0010000000000000
0010000000000000
0011000000000000
0010000000000000
0010000000000000
0010000000000000
0011000000000000
0010000000000000
0010000000000000
0011000000000000
0011000000000000
0011000000000000
0011000000000000
0010000000000000
0010000000000000
0011000000000000
0010000000000000
0010000000000000
0011000000000000
0011000000000000
0011000000000000
0010000000000000
0011000000000000
0010000000000000
0011000000000000
0011000000000000
0011000000000000
0011000000000000
0011000000000000
0010000000000000
0010000000000000
0011000000000000
0010000000000000
0010000000000000
0010000000000000
0010000000000000
0010000000000000
0011000000000000
0011000000000000
0011000000000000
0010000000000000
0010000000000000
0010000000000000
0011000000000000
0010000000000000
0011000000000000
0010000000000000
0010000000000000
0010000000000000
0011000000000000
0011000000000000
0011000000000000
0011000000000000
0011000000000000
0010000000000000
0010000000000000
0010000000000000
0011000000000000
0010000000000000
0010000000000000
0010000000000000
0010000000000000
0010000000000000
0010000000000000
0010000000000000
0011000000000000
0011000000000000
0011000000000000
0011000000000000
0010000000000000
0011000000000000
0010000000000000
0011000000000000
0011000000000000
0010000000000000
0010000000000000
0010000000000000
0010000000000000
0010000000000000
0010000000000000
0010000000000000
0011000000000000
0010000000000000
0010000000000000
0010000000000000
0010000000000000
0010000000000000
0011000000000000
0011000000000000
0011000000000000
0011000000000000
0011000000000000
0011000000000000
0011000000000000
0011000000000000
0011000000000000
0011000000000000
0011000000000000
0010000000000000
0010000000000000
0010000000000000
0010000000000000
0010000000000000
0010000000000000
0011000000000000
0010000000000000
0011000000000000
0011000000000000
0011000000000000
0011000000000000
0011000000000000
0010000000000000
0011000000000000
0011000000000000
0011000000000000
0011000000000000
0010000000000000
0010000000000000
0011000000000000
0011000000000000
0011000000000000
0011000000000000
0010000000000000
0010000000000000
0011000000000000
0011000000000000
0011000000000000
0011000000000000
0011000000000000
0011000000000000
0011000000000000
0010000000000000
0011000000000000
0011000000000000
0011000000000000
0011000000000000
0010000000000000
0010000000000000
0011000000000000
0011000000000000
0010000000000000
0010000000000000
0010000000000000
0010000000000000
0010000000000000
0010000000000000
0010000000000000
0010000000000000
0010000000000000
0010000000000000
0011000000000000
0010000000000000
0010000000000000
0011000000000000
0011000000000000
0011000000000000
0010000000000000
0011000000000000
0010000000000000
0011000000000000
0010000000000000
0010000000000000
0010000000000000
0010000000000000
0010000000000000
0010000000000000
0010000000000000
0010000000000000
0010000000000000
0011000000000000
0011000000000000
0011000000000000
0011000000000000
0011000000000000
0011000000000000
0010000000000000
0011000000000000
0011000000000000
0011000000000000
0010000000000000
0010000000000000
0010000000000000
0010000000000000
0010000000000000
0010000000000000
0011000000000000
0010000000000000
0011000000000000
0010000000000000
0011000000000000
0011000000000000
0011000000000000
0011000000000000
0011000000000000
0011000000000000
0011000000000000
0010000000000000
0010000000000000
